f1
de
c0
54
22
e7
ba
0e
e5
0c
e3
17
0e
1c
ce
f0
ef
04
0e
ec
f3
37
0b
1f
d4
46
05
ae
00
1a
c7
ef
fe
52
cc
ef
15
ee
c9
da
b8
3d
c1
0e
bb
b7
e0
21
1d
fd
ba
e9
3f
16
fe
2c
50
b3
e1
c8
4c
f9
01
25
24
b4
ef
1c
3e
35
4a
13
19
c8
b2
08
e5
27
4c
37
17
f1
f3
3b
2c
3f
e3
10
fb
bd
c1
b4
3c
47
17
16
3f
f0
c4
dd
d6
29
44
08
c3
ea
cb
18
f9
3e
26
ea
d4
1e
28
40
0d
c6
d1
fc
26
05
3f
d8
1d
30
27
fd
2d
55
cb
ff
b9
af
0a
0a
cd
d7
b4
e9
3b
0e
dd
fc
19
bc
b5
31
06
eb
23
10
da
29
b5
24
02
be
b3
24
2e
1c
f2
05
dd
f6
c0
c9
3b
03
46
08
09
22
27
ed
b3
b0
e4
bd
ae
0b
ba
d4
e8
b7
22
e1
e5
10
02
03
4a
cf
f8
b4
16
27
e6
ea
ba
22
b4
b0
1e
c6
3f
b7
f7
b8
0c
14
de
42
d2
c7
f8
df
d0
e3
ed
3f
d9
f3
47
d0
e3
ef
c0
bc
21
2e
43
bd
eb
40
ff
29
d8
b9
bd
e3
33
b5
4b
47
bb
0d
10
34
f6
b8
3e
14
42
df
22
0a
0c
c4
f4
cb
4f
11
0e
3a
b0
15
fa
df
c7
37
b6
cd
2f
d5
dc
17
4d
dc
1d
44
af
d7
fd
1f
06
fb
13
15
e8
06
b1
ec
c6
e1
f0
fe
31
3b
1a
49
d3
d0
d2
c6
ff
e0
d8
14
cb
2d
e5
12
06
e8
d8
c9
1d
e6
20
52
4d
4b
4c
06
f4
09
21
25
26
f3
bc
be
06
d8
f5
ab
15
cc
aa
0a
02
41
a3
04
e4
38
a9
34
c9
4c
14
1d
48
f9
56
2d
59
50
47
31
21
ca
22
0e
36
e9
b6
15
ee
21
4b
c9
c6
eb
0c
4c
2a
4c
45
bc
5a
50
5f
15
2f
f6
f3
18
c8
5a
0c
1a
12
33
10
48
cf
3d
4c
21
0d
d8
5d
61
34
eb
e4
67
70
48
4b
59
07
65
0c
1b
56
4e
23
64
47
6e
f9
ef
5d
c5
56
4b
59
4c
e1
cd
0d
51
f6
38
e5
2c
0d
03
5a
3a
0a
bc
5b
2d
61
f5
4d
e8
40
19
20
f5
21
ca
d2
0e
bd
f8
15
13
2b
ed
c1
d9
31
c7
f7
5b
50
44
23
23
ea
ee
c0
21
bd
10
0e
26
fa
b1
ad
f1
b0
d6
13
45
ac
e1
c6
1d
34
4a
3c
f0
1c
d0
2e
2f
21
14
b3
be
f7
bf
fd
c9
03
bb
f1
f1
22
46
0c
10
45
1f
56
d5
15
c6
10
06
bb
3a
27
d0
27
f6
2d
0f
1c
02
03
ba
d9
39
fa
c4
52
ba
12
e7
f5
39
fd
26
55
50
f1
bd
4e
bb
fa
40
44
c2
c0
cb
b9
1d
01
47
dc
4b
2b
36
af
c5
ee
f1
2e
cd
57
32
24
ee
53
49
25
37
ef
4b
c3
c0
36
ce
e9
30
ed
b2
10
bd
b4
2e
d3
13
13
f0
2a
cb
e9
42
d3
19
0c
1c
0d
1a
c5
40
11
e5
02
e8
d5
f5
2c
e1
0a
37
f8
08
f4
37
02
03
d8
e5
4d
ea
30
c3
1c
c6
1c
55
08
33
45
20
e8
29
bb
07
1d
27
50
41
00
b6
3d
e6
c2
d5
1f
0d
f9
bc
26
cf
04
33
3b
22
16
02
12
30
54
ca
f8
c6
2d
07
e9
d7
2b
07
21
c4
f1
ca
2b
c6
08
da
b5
35
16
fa
fa
33
af
27
af
b2
ee
e9
1d
3e
c8
05
dd
ae
35
1e
bd
00
25
b2
18
fd
de
f9
06
c8
51
28
da
b0
fd
3c
f8
21
bd
f8
3e
ba
3a
b3
ba
25
de
ed
47
d4
25
47
45
1a
b7
f6
0a
dd
ce
12
e0
3d
1f
4e
57
d1
17
52
43
09
08
5e
42
1e
e1
18
4a
2a
c9
5b
53
2a
fc
00
ca
e3
fd
61
1e
23
ca
65
70
ee
5e
0d
5c
e2
1f
64
e9
19
12
60
0a
58
5a
ee
a8
e9
3d
ca
dc
d4
d6
a6
0b
ca
b2
3a
06
14
fd
d7
ac
cf
50
09
f5
db
09
0d
a3
c2
ab
03
b7
fa
de
02
28
fc
04
b1
ad
e3
ca
01
e9
1d
4c
e9
c1
23
d7
c8
41
fb
38
0c
2d
c2
27
08
b4
1a
f7
f4
00
f0
ec
16
ce
f2
25
21
18
30
db
ed
2a
41
dd
16
12
da
3f
3c
c3
32
15
d8
ed
e0
0c
21
de
fd
00
0d
32
01
5b
db
bf
50
5b
4a
d4
3e
21
23
ae
12
2b
1c
eb
03
17
c6
c7
be
cb
16
b8
44
04
e6
e1
f6
1f
dd
17
b8
37
1a
49
d6
38
fa
10
05
f6
27
e8
f3
b8
05
fa
d1
4e
24
f1
33
af
26
31
f1
12
e3
ca
d3
b5
d8
c8
4c
be
c6
32
37
52
c9
3c
cb
11
0d
12
ce
cc
1a
bd
c3
d9
d1
05
4e
d9
d7
4f
48
d3
ec
03
49
06
ea
e8
ed
1a
c7
d4
b9
e7
cb
4c
2c
b7
25
3e
52
dd
03
d0
4b
d1
11
46
51
c9
b7
fc
2d
ea
d2
15
d3
39
14
b8
3b
04
c5
47
c1
2a
25
ea
00
cf
1b
ec
fe
21
c6
dc
cc
eb
f3
db
21
2a
4c
2a
b1
b6
c5
36
dc
15
24
16
db
20
ca
1b
d9
09
e0
10
3b
ed
03
f2
19
0a
22
33
00
48
e9
ef
d9
bb
ba
45
04
f9
fa
29
f1
e6
b9
e6
1b
d7
51
2e
50
ff
ed
2b
e5
4d
10
4b
07
fa
d6
f3
d2
46
10
c4
d4
46
4a
eb
27
f6
39
cf
68
69
30
46
5b
40
56
63
e6
5b
57
d9
c8
c6
4b
3d
ec
29
1c
2e
26
d6
cb
38
e0
c8
ae
4e
31
b2
2b
f8
e0
13
ec
ba
1c
f5
ae
33
1d
e5
ea
e1
0f
e5
d1
d0
d3
cc
cc
e8
bd
1f
d9
e7
fd
e0
4e
25
f4
26
fe
04
05
04
18
3b
26
fa
d0
07
10
f6
e7
16
f6
de
dc
18
43
3d
17
ba
04
eb
b5
ef
0c
e5
e0
de
b5
0b
e9
da
b3
02
de
c0
05
f7
42
fd
cb
e2
10
fd
01
c1
45
34
e2
25
1d
0a
45
06
be
2e
2b
de
d5
09
c1
b0
06
cd
0f
27
b8
42
c7
ce
3a
11
ef
fe
c4
10
08
fa
d7
ce
26
f4
f7
bd
05
f9
06
40
39
2a
3a
d6
2c
fc
e8
b8
3f
29
df
dc
32
2a
21
47
1c
bc
59
c9
c1
35
21
28
47
b1
1b
c4
32
d3
12
4c
35
d1
ad
cd
2b
fb
f6
1e
13
0f
1d
23
e3
c8
e0
4f
d4
0d
fb
1d
1b
1d
39
b3
21
f4
08
b5
22
03
fa
d7
a5
08
e6
13
c0
ae
b5
cc
cd
2e
26
f0
39
3e
29
1b
fd
0b
0e
c8
d4
e9
3f
2c
c6
1e
39
16
e5
39
f5
57
c2
0c
ca
b4
b4
1b
f8
2e
05
10
c9
e0
e9
34
e3
c5
20
e2
1a
3c
c4
32
e7
4c
16
49
ca
b5
f4
08
1d
d8
2a
cc
23
35
bd
b1
13
46
f4
d4
f7
52
33
dd
06
af
b0
23
e7
35
ce
41
bd
d4
22
50
ef
b2
44
04
bd
f5
e8
e6
cd
19
3f
52
d9
48
34
05
20
f0
0f
0e
10
25
ca
03
07
01
b2
dd
e9
f2
25
08
45
ed
e5
53
f5
e2
db
ba
b3
29
f6
28
40
e0
fd
29
f1
b1
d9
0d
0e
11
c0
50
d2
c4
18
32
0e
e8
0a
04
e4
f4
f9
ba
c5
e6
fe
16
15
db
27
3f
1d
18
38
39
e9
f5
3a
f2
ef
3d
57
06
21
06
f5
d9
d5
53
ea
1c
39
20
2b
40
44
d1
03
34
38
35
52
5f
24
5c
1a
45
e8
f6
65
69
cf
d7
3e
40
42
43
46
ff
29
1e
12
37
c4
04
f0
49
57
76
ee
34
79
f9
4a
64
5d
71
19
31
74
0f
59
40
ea
6a
45
10
3e
28
21
26
ab
27
ad
4d
04
d7
dc
15
4c
b9
af
f2
e6
10
2d
e4
e8
cb
1b
0c
b7
34
07
18
ce
fa
20
27
11
3b
e7
d4
f1
b0
0f
fe
fa
e2
c0
25
ed
2a
b0
db
c0
eb
f7
e9
46
f7
36
10
2c
1f
cf
ad
27
ba
07
c5
f7
01
c2
12
37
dd
4c
d0
35
b4
3f
cd
b9
26
20
c2
f4
18
36
d7
f6
4e
2d
29
b3
fc
de
35
27
e6
fa
28
d5
07
bc
b8
b6
c7
f1
dd
be
20
0c
c6
03
d7
da
4e
b9
ef
20
1b
ed
df
f8
e6
d0
31
b2
12
d1
af
16
cd
0d
31
02
14
d5
cc
1d
f8
26
09
48
f6
4a
1d
e6
b9
18
c4
47
0f
3a
18
11
af
f2
0f
46
d9
2f
35
16
be
12
52
d3
e2
37
b5
b8
f9
20
0d
46
1b
3f
02
f0
23
ca
b6
3b
35
41
ca
3e
2a
d8
ee
22
38
0b
56
f5
60
c0
27
cb
52
bb
d4
e5
55
16
40
04
3c
fd
e4
b9
d0
e3
4a
f7
ff
38
bf
30
43
b8
bc
d0
21
fe
28
17
45
e9
52
ee
b2
51
d9
36
f9
d4
ab
ea
fd
e3
b8
1b
df
58
01
c9
40
f1
c4
14
2c
3c
15
40
d3
b7
4a
d8
de
c0
b8
e8
46
16
45
1f
41
de
00
2b
b9
0e
b7
fa
af
de
11
cf
35
ce
09
4a
b2
b8
d0
44
44
4b
0d
d2
1a
3b
42
50
05
d7
16
ce
2e
08
2e
c8
ef
1e
42
f8
15
e8
cf
58
4a
dc
07
eb
eb
55
25
32
d4
ca
09
e7
23
c9
18
32
3f
4f
b7
38
d7
d0
e3
32
db
46
29
23
08
ee
0d
40
21
58
4f
4d
be
2a
bb
5f
08
51
56
e3
2c
b7
dd
0b
17
e1
05
52
f3
28
f8
46
1e
43
c5
17
f3
3e
bf
fc
3a
e9
02
f4
d7
16
df
5d
1a
12
ff
fd
44
b0
da
f5
00
be
15
4f
ec
01
1f
18
f8
bf
dd
4e
07
06
a4
be
b2
2f
4d
24
0b
07
c1
fe
3b
47
11
2b
e7
ef
fb
d4
2e
b7
e0
35
d6
a8
02
11
da
fc
15
27
51
04
11
52
27
32
4f
42
5f
5e
7f
72
68
f1
6a
e0
6a
67
2f
06
5d
40
2f
11
41
f8
f5
24
0b
56
d4
3c
26
38
0a
09
e8
b6
22
4e
e8
ff
d4
f8
0c
43
3b
bc
ea
46
5d
b3
20
b8
f0
34
b7
f8
54
fd
44
12
fa
fb
f0
57
24
d3
0b
24
2b
4c
47
95
c5
9f
2a
ec
05
04
ef
e4
de
d9
d7
e4
ec
f3
a6
e4
17
da
c3
c5
d7
d9
c9
f1
14
3b
4f
bf
b7
4a
1f
e3
f5
19
b9
ec
17
3d
04
bc
3e
f3
48
fd
1f
2e
44
c0
3d
2f
0a
5f
5b
18
3e
39
50
1b
e7
13
d5
48
34
65
0f
60
10
2d
38
29
00
c1
3c
14
26
da
f7
05
19
67
6a
e4
46
ee
42
e5
36
3e
5d
e9
47
14
0c
61
c4
21
ee
d5
61
c5
dd
bb
f7
44
ee
1f
0e
5d
45
0f
24
2e
be
39
52
ec
4b
bf
da
3a
aa
c7
ed
c2
c0
e5
bb
da
43
49
0f
c6
bd
f5
29
fc
d3
2f
10
d0
ab
be
a7
ee
05
41
e8
ce
f5
d8
e5
da
44
4f
ee
33
52
5c
c2
ca
44
4a
1d
1d
fa
21
10
e1
0d
3a
ed
d7
0e
1b
24
b7
2a
1c
d7
e3
ce
fa
d8
c9
f6
02
bf
29
38
c8
e9
26
05
1e
19
30
d2
e4
2d
de
e7
af
ea
17
37
47
db
c9
c8
b6
f8
f9
f6
17
25
ce
51
3f
2a
1a
12
43
cc
1a
c2
44
b1
d6
1e
ea
ac
eb
12
e6
04
39
25
00
50
c7
0b
58
4b
2a
32
b8
d5
23
02
bc
3f
f3
ce
40
e8
1c
06
26
e6
c0
1c
ea
44
4d
d8
0b
bf
47
3b
4a
1b
ee
d5
3a
ee
33
40
d4
31
c5
de
4a
d0
52
c8
fe
eb
f5
dd
cc
05
11
c2
25
d5
19
1f
3a
3a
06
1f
f2
f9
de
00
46
d8
f0
c7
3b
c3
c2
e2
16
e1
e7
4a
df
cc
c2
a3
c0
3a
f6
